<?xml version="1.0"?>
<opencv_storage>
<stage2>
  <maxWeakCount>7</maxWeakCount>
  <stageThreshold>-2.1682724952697754e+000</stageThreshold>
  <weakClassifiers>
    <_>
      <internalNodes>
        0 -1 61329 -1 -17409 -67634177 -1025 -1145324545 -1074025733
        -67129345 -1</internalNodes>
      <leafValues>
        -9.8116892576217651e-001 3.3333334326744080e-001</leafValues></_>
    <_>
      <internalNodes>
        0 -1 79403 -137 -16796673 -103809025 -1301 -16777355 -286528577
        -1241514115 -319818241</internalNodes>
      <leafValues>
        -9.5850455760955811e-001 -4.7090694308280945e-001</leafValues></_>
    <_>
      <internalNodes>
        0 -1 27028 -268433 -1428193289 -3145985 -536969266 -238168603
        -6592521 -514 -402915330</internalNodes>
      <leafValues>
        -8.2518517971038818e-001 2.3292894661426544e-001</leafValues></_>
    <_>
      <internalNodes>
        0 -1 43778 780086911 2147483615 -2097153 -2621441 -32897 -33825
        -2098305 2147450719</internalNodes>
      <leafValues>
        -9.6572220325469971e-001 2.7620846033096313e-001</leafValues></_>
    <_>
      <internalNodes>
        0 -1 30127 2139062062 2147467132 -303076417 1337965547
        1543372669 1541179870 -620889345 -65601</internalNodes>
      <leafValues>
        -9.0744632482528687e-001 3.4410950541496277e-001</leafValues></_>
    <_>
      <internalNodes>
        0 -1 76728 -268452062 -16777217 -543164097 -1208034306
        -638582985 1877998223 -38797867 2130181087</internalNodes>
      <leafValues>
        -9.5917487144470215e-001 3.8395160436630249e-001</leafValues></_>
    <_>
      <internalNodes>
        0 -1 57238 -1352400916 1006550969 2079849462 -1082523779
        1803514875 -1153576257 2145386239 -705888259</internalNodes>
      <leafValues>
        -8.9528101682662964e-001 3.7309703230857849e-001</leafValues></_></weakClassifiers></stage2>
</opencv_storage>
